16 ff fd 1f 00 00 c1 e5 f9 21 1a f9 16 38 0e fe f9 f7 01 f4 0b 06 05 d7 13 00 ec 26 f8 f1 00 16 00 fa fc e4 02 fd 01 07 ec d8 f5 00 df 01 14 0c
fd e7 22 e4 23 ff 04 17 0a e8 1a 12 02 02 30 08 d8 d6 fd 09 10 f1 07 d4 c5 fd f7 c1 fd 35 fe d2 ed 29 00 ee 02 01 f3 fd 17 1b 26 0a ed 20 04 f3
0f f1 cf fa 00 ca d1 f0 fe f1 1f 35 ed 23 1d f6 00 07 db b9 ec f1 de e2 3f 22 14 2f 37 19 00 01 00 07 fe f3 29 0a 14 0f 2f fd 05 ef ec f7 08 f8
f0 ea e8 06 d0 d6 13 f0 26 e2 f4 0a 1a e0 d6 ff 22 f7 f4 ef f9 1f 43 32 ea 05 f0 fe ed fb ff 32 08 06 f8 0b 2b 01 f1 fc 0a f2 e5 ee 17 20 f8 e6
e4 f3 e9 f9 17 45 27 37 fd 17 ea 08 ed e8 f0 0d df dd c9 26 12 02 ff 11 1e eb f7 1c ee dd 03 cf 17 e1 03 f6 ef f5 f9 01 0d 04 fb f8 14 f8 fb fd
fb 2d 17 e4 08 18 04 dc 09 df d5 d9 f2 15 ed 0d 1d 26 24 29 ea f8 f6 e4 f5 ee cd aa 0f 1d 28 24 ff 10 04 06 e8 ef ff 12 03 f9 00 31 20 22 0a fa
02 0a 13 fc 11 35 35 00 f4 4a 02 bf f0 f4 00 da f5 e2 04 15 0e dd 0d f6 f3 09 02 d8 ea 00 f1 22 05 24 25 1d e7 07 fa ff d0 fc ef e4 c6 ef f2 0c
23 0b 15 05 e5 d8 d1 19 da 07 09 04 fe de f4 f6 fe f0 e4 16 00 de e6 f4 fd 14 21 31 03 c6 1a d1 ed 06 00 0a 18 49 09 1c 18 18 1a f9 27 fe f9 1a
02 10 e8 e8 00 fb 1f ed d9 d4 01 fd f3 1a 1f f9 29 35 06 fc f4 f3 f6 34 03 21 26 0e 12 10 d7 02 dd e0 f6 11 d9 f5 f6 f4 07 02 ec f6 e3 dd e1 04
fd 0f 03 11 f1 00 e0 0c 22 fd e0 f6 f8 c9 f7 34 10 29 2b e9 0a 14 04 16 cf f6 15 f9 c7 e2 1e dd 25 f9 f3 fe d6 d0 1d e8 d6 05 f5 fc 31 1d 11 04
